#ifndef td3_MODEL_H
#define td3_MODEL_H

const unsigned char td3_model[] = {
0x1c, 0x00, 0x00, 0x00, 0x54, 0x46, 0x4c, 0x33, 0x14, 0x00, 0x20, 0x00,
0x1c, 0x00, 0x18, 0x00, 0x14, 0x00, 0x10, 0x00, 0x0c, 0x00, 0x00, 0x00,
0x08, 0x00, 0x04, 0x00, 0x14, 0x00, 0x00, 0x00, 0x1c, 0x00, 0x00, 0x00,
0x90, 0x00, 0x00, 0x00, 0xe8, 0x00, 0x00, 0x00, 0x6c, 0x15, 0x00, 0x00,
0x7c, 0x15, 0x00, 0x00, 0x54, 0x1a, 0x00, 0x00, 0x03, 0x00, 0x00, 0x00,
0x01, 0x00, 0x00, 0x00, 0x10, 0x00, 0x00, 0x00, 0x00, 0x00, 0x0a, 0x00,
0x10, 0x00, 0x0c, 0x00, 0x08, 0x00, 0x04, 0x00, 0x0a, 0x00, 0x00, 0x00,
0x0c, 0x00, 0x00, 0x00, 0x1c, 0x00, 0x00, 0x00, 0x3c, 0x00, 0x00, 0x00,
0x0f, 0x00, 0x00, 0x00, 0x73, 0x65, 0x72, 0x76, 0x69, 0x6e, 0x67, 0x5f,
0x64, 0x65, 0x66, 0x61, 0x75, 0x6c, 0x74, 0x00, 0x01, 0x00, 0x00, 0x00,
0x04, 0x00, 0x00, 0x00, 0x98, 0xff, 0xff, 0xff, 0x09, 0x00, 0x00, 0x00,
0x04, 0x00, 0x00, 0x00, 0x09, 0x00, 0x00, 0x00, 0x41, 0x63, 0x74, 0x6f,
0x72, 0x46, 0x43, 0x33, 0x5f, 0x00, 0x00, 0x00, 0x01, 0x00, 0x00, 0x00,
0x04, 0x00, 0x00, 0x00, 0x9e, 0xeb, 0xff, 0xff, 0x04, 0x00, 0x00, 0x00,
0x07, 0x00, 0x00, 0x00, 0x69, 0x6e, 0x70, 0x75, 0x74, 0x5f, 0x31, 0x00,
0x02, 0x00, 0x00, 0x00, 0x34, 0x00, 0x00, 0x00, 0x04, 0x00, 0x00, 0x00,
0xdc, 0xff, 0xff, 0xff, 0x0c, 0x00, 0x00, 0x00, 0x04, 0x00, 0x00, 0x00,
0x13, 0x00, 0x00, 0x00, 0x43, 0x4f, 0x4e, 0x56, 0x45, 0x52, 0x53, 0x49,
0x4f, 0x4e, 0x5f, 0x4d, 0x45, 0x54, 0x41, 0x44, 0x41, 0x54, 0x41, 0x00,
0x08, 0x00, 0x0c, 0x00, 0x08, 0x00, 0x04, 0x00, 0x08, 0x00, 0x00, 0x00,
0x0b, 0x00, 0x00, 0x00, 0x04, 0x00, 0x00, 0x00, 0x13, 0x00, 0x00, 0x00,
0x6d, 0x69, 0x6e, 0x5f, 0x72, 0x75, 0x6e, 0x74, 0x69, 0x6d, 0x65, 0x5f,
0x76, 0x65, 0x72, 0x73, 0x69, 0x6f, 0x6e, 0x00, 0x0d, 0x00, 0x00, 0x00,
0x80, 0x14, 0x00, 0x00, 0x78, 0x14, 0x00, 0x00, 0xec, 0x13, 0x00, 0x00,
0xd0, 0x13, 0x00, 0x00, 0x44, 0x13, 0x00, 0x00, 0x30, 0x04, 0x00, 0x00,
0x38, 0x01, 0x00, 0x00, 0xac, 0x00, 0x00, 0x00, 0xa4, 0x00, 0x00, 0x00,
0x9c, 0x00, 0x00, 0x00, 0x94, 0x00, 0x00, 0x00, 0x74, 0x00, 0x00, 0x00,
0x04, 0x00, 0x00, 0x00, 0x46, 0xec, 0xff, 0xff, 0x04, 0x00, 0x00, 0x00,
0x60, 0x00, 0x00, 0x00, 0x0c, 0x00, 0x00, 0x00, 0x08, 0x00, 0x0e, 0x00,
0x08, 0x00, 0x04, 0x00, 0x08, 0x00, 0x00, 0x00, 0x10, 0x00, 0x00, 0x00,
0x28, 0x00, 0x00, 0x00, 0x00, 0x00, 0x06, 0x00, 0x08, 0x00, 0x04, 0x00,
0x06, 0x00, 0x00, 0x00, 0x04, 0x00, 0x00, 0x00, 0x01, 0x00, 0x00, 0x00,
0xea, 0x03, 0x00, 0x00, 0x0c, 0x00, 0x18, 0x00, 0x14, 0x00, 0x10, 0x00,
0x0c, 0x00, 0x04, 0x00, 0x0c, 0x00, 0x00, 0x00, 0xe4, 0xae, 0x94, 0x91,
0x5c, 0x2f, 0x7e, 0xec, 0x01, 0x00, 0x00, 0x00, 0x02, 0x00, 0x00, 0x00,
0x04, 0x00, 0x00, 0x00, 0x06, 0x00, 0x00, 0x00, 0x32, 0x2e, 0x32, 0x31,
0x2e, 0x30, 0x00, 0x00, 0xb2, 0xec, 0xff, 0xff, 0x04, 0x00, 0x00, 0x00,
0x10, 0x00, 0x00, 0x00, 0x31, 0x2e, 0x35, 0x2e, 0x30, 0x00, 0x00, 0x00,
0x00, 0x00, 0x00, 0x00, 0x00, 0x00, 0x00, 0x00, 0x7c, 0xe7, 0xff, 0xff,
0x80, 0xe7, 0xff, 0xff, 0x84, 0xe7, 0xff, 0xff, 0xda, 0xec, 0xff, 0xff,
0x04, 0x00, 0x00, 0x00, 0x7c, 0x00, 0x00, 0x00, 0xc0, 0xef, 0x0f, 0x3c,
0x57, 0xf5, 0x54, 0xbc, 0xb3, 0x3a, 0x26, 0xbf, 0x7e, 0xb0, 0x20, 0xb7,
0x73, 0xb9, 0x76, 0xbe, 0x83, 0xa9, 0xbc, 0xbe, 0x1d, 0x1a, 0x21, 0xc0,
0xff, 0x87, 0x96, 0x3f, 0x73, 0x7d, 0xbd, 0xb3, 0xd3, 0x51, 0xe2, 0xbe,
0xbc, 0x82, 0x14, 0xbf, 0x86, 0x41, 0xac, 0xc0, 0xcf, 0x3a, 0x52, 0xbf,
0xfb, 0xdc, 0x17, 0x3f, 0x27, 0xde, 0xe1, 0xbe, 0x32, 0xdb, 0x3a, 0xbf,
0xad, 0xcb, 0x08, 0xc0, 0x20, 0xdb, 0x7b, 0x3c, 0x7e, 0xa6, 0x06, 0xbf,
0xd6, 0x16, 0xa5, 0xbc, 0x89, 0xfb, 0x48, 0xbf, 0xb2, 0xda, 0xce, 0xa2,
0x26, 0x83, 0xcf, 0xbf, 0xc3, 0x6b, 0x6b, 0x3e, 0xa1, 0xd2, 0x46, 0xbc,
0x0c, 0x61, 0x5e, 0xbf, 0xb0, 0xca, 0x43, 0xc0, 0x29, 0x46, 0xc0, 0xbe,
0xd3, 0x8c, 0xad, 0xbe, 0x1e, 0x3f, 0xc3, 0xbf, 0xd4, 0xfe, 0x6f, 0xbf,
0x62, 0xed, 0xff, 0xff, 0x04, 0x00, 0x00, 0x00, 0xe8, 0x02, 0x00, 0x00,
0x89, 0x62, 0xec, 0xbe, 0xde, 0x94, 0x51, 0xbe, 0xbd, 0xad, 0x1d, 0xbe,
0x27, 0x0d, 0x91, 0x3f, 0x03, 0x3e, 0x03, 0xbf, 0x0c, 0x09, 0x6c, 0xc0,
0xb4, 0x78, 0x1d, 0xbe, 0x26, 0x62, 0xad, 0xbb, 0x0c, 0xac, 0x58, 0x3d,
0x43, 0x4b, 0x64, 0x40, 0x43, 0x70, 0x04, 0x41, 0x1a, 0x78, 0x0a, 0x40,
0xbf, 0x02, 0x8a, 0xbd, 0x10, 0xca, 0x8b, 0xbd, 0xf4, 0xea, 0x8a, 0xbd,
0x8e, 0x1d, 0x51, 0xc0, 0xd3, 0xff, 0x1e, 0x40, 0x2b, 0xfa, 0x99, 0x3e,
0x61, 0xfa, 0xa8, 0xb5, 0x31, 0x1b, 0xa9, 0xb5, 0xf2, 0x0a, 0xa9, 0xb5,
0x2a, 0x27, 0x6d, 0x34, 0x5c, 0x1d, 0xa3, 0xb2, 0x10, 0x03, 0xc2, 0xb4,
0x6a, 0x3b, 0x84, 0x3d, 0x33, 0x34, 0x84, 0x3d, 0xd2, 0x37, 0x84, 0x3d,
0x74, 0xdd, 0x6c, 0x3c, 0x82, 0x8e, 0x97, 0x3e, 0x9d, 0xb4, 0x03, 0xbe,
0x07, 0x0b, 0xa1, 0x3d, 0x97, 0x0f, 0xa1, 0x3d, 0x4a, 0x0d, 0xa1, 0x3d,
0x46, 0x41, 0x87, 0x3d, 0x80, 0x24, 0x84, 0x3d, 0x1d, 0xa5, 0x10, 0xbe,
0xb4, 0xdf, 0x5b, 0x3f, 0x00, 0x95, 0x5b, 0x3f, 0xcd, 0x29, 0x5f, 0x3f,
0xfa, 0xcf, 0x89, 0xbf, 0x46, 0x64, 0x49, 0x3f, 0xd8, 0x29, 0x25, 0xc0,
0xdf, 0x11, 0xba, 0xbf, 0xa7, 0xe6, 0xc7, 0xbf, 0x69, 0x2b, 0xc0, 0xbf,
0x9f, 0x2d, 0x42, 0xbd, 0xf4, 0x47, 0xaf, 0xbf, 0x03, 0x88, 0x83, 0xbe,
0xc2, 0x71, 0x05, 0x80, 0x3a, 0x58, 0x05, 0x80, 0x09, 0x8f, 0x05, 0x80,
0xe8, 0x63, 0x05, 0x80, 0xf0, 0x6c, 0x05, 0x80, 0xaf, 0x71, 0x05, 0x80,
0x75, 0x36, 0x76, 0x3d, 0xf7, 0x2b, 0x76, 0x3d, 0x4d, 0x31, 0x76, 0x3d,
0xdf, 0xa8, 0xed, 0x3d, 0xaf, 0x25, 0x15, 0x3a, 0xb5, 0x37, 0xae, 0xbd,
0x1b, 0xfb, 0x49, 0xbf, 0x69, 0x6a, 0x38, 0xbf, 0x3f, 0xcc, 0xc6, 0xbe,
0x4b, 0x9e, 0xba, 0x3f, 0x78, 0xa9, 0xcb, 0xc0, 0x9c, 0x31, 0x8a, 0xbf,
0x4a, 0xe0, 0x6b, 0x40, 0x07, 0x07, 0x6c, 0x40, 0x7d, 0xf3, 0x6b, 0x40,
0xa4, 0x5f, 0x1d, 0x40, 0x6a, 0x2c, 0x17, 0xbe, 0xa6, 0xf7, 0x1f, 0x40,
0x44, 0x2d, 0xab, 0x3f, 0xf8, 0x39, 0xc6, 0x3f, 0x83, 0x13, 0xb8, 0x3f,
0xdb, 0x8f, 0x67, 0xc0, 0xe1, 0x23, 0xac, 0x40, 0xc4, 0xa4, 0x54, 0xbf,
0xd4, 0x3e, 0x13, 0x3f, 0x61, 0x1c, 0x58, 0x3e, 0x1b, 0x33, 0x8e, 0x3e,
0x61, 0x38, 0xa2, 0x3e, 0xb9, 0x3a, 0xe4, 0xbf, 0xbd, 0x22, 0x32, 0x3f,
0x6d, 0x58, 0xe3, 0xbd, 0xed, 0x86, 0xe3, 0xbd, 0xb4, 0x6f, 0xe3, 0xbd,
0x5f, 0x7b, 0xac, 0xbb, 0x2c, 0x98, 0x85, 0xbd, 0xd0, 0x08, 0xb6, 0xbe,
0xc7, 0xbb, 0xa4, 0xbf, 0xb9, 0x00, 0xb1, 0xbf, 0x41, 0x42, 0xa2, 0xbf,
0x58, 0x08, 0xc1, 0x40, 0x1c, 0x5f, 0xf6, 0xbe, 0x7f, 0x1b, 0x53, 0x41,
0x58, 0xaf, 0x1c, 0xc0, 0x2d, 0x82, 0x1e, 0xc0, 0x34, 0x9e, 0x1c, 0xc0,
0x8c, 0xfc, 0x65, 0xc0, 0x94, 0x74, 0xca, 0xc0, 0x47, 0x73, 0x44, 0xc0,
0xfa, 0xcc, 0x8d, 0xbe, 0x98, 0xdf, 0xa1, 0xbe, 0xb1, 0xc0, 0xfe, 0xbe,
0xf3, 0x05, 0xb1, 0xbf, 0xd0, 0x4b, 0x2b, 0xbf, 0x45, 0xc2, 0x81, 0xbf,
0x2a, 0xb2, 0x29, 0xbc, 0x63, 0x4b, 0x22, 0xbc, 0xdf, 0xfe, 0x25, 0xbc,
0x73, 0x8e, 0x68, 0xbe, 0x79, 0xa7, 0x63, 0x3e, 0x1b, 0x20, 0xe7, 0xbe,
0x33, 0x2a, 0xc0, 0x3e, 0x3e, 0xe2, 0x8d, 0x3e, 0xb7, 0x79, 0x8c, 0x3e,
0x11, 0x95, 0xe9, 0xbf, 0x0a, 0x8c, 0x60, 0xc0, 0x2e, 0x5e, 0x0c, 0xc0,
0x1f, 0xdb, 0x41, 0xbe, 0x87, 0x4e, 0x4d, 0xbe, 0x5c, 0x95, 0x47, 0xbe,
0xe6, 0x41, 0x15, 0x40, 0x9e, 0x45, 0x3e, 0xc0, 0xbe, 0xdf, 0x27, 0xc0,
0xfe, 0x5f, 0x05, 0x80, 0x8d, 0x61, 0x05, 0x80, 0xe8, 0x58, 0x05, 0x80,
0xa3, 0x6a, 0x05, 0x00, 0x4f, 0x6f, 0x05, 0x80, 0x14, 0x69, 0x05, 0x00,
0x54, 0xd5, 0x39, 0x40, 0x56, 0x07, 0x21, 0x40, 0x9c, 0xa1, 0x1e, 0x40,
0x45, 0xa9, 0xb3, 0xbf, 0x72, 0xc7, 0xd9, 0x3f, 0x52, 0xed, 0x00, 0xc0,
0x44, 0xdb, 0xd0, 0x3f, 0xef, 0x15, 0xe3, 0x3f, 0x5c, 0xca, 0xf9, 0x3f,
0x73, 0x1a, 0xb7, 0xc0, 0xe0, 0xc6, 0xde, 0xc0, 0x6d, 0x01, 0xb4, 0xc0,
0xb3, 0xa5, 0x65, 0x3f, 0xc7, 0x3c, 0x9d, 0x3f, 0x7c, 0x60, 0x9a, 0x3f,
0x14, 0xc9, 0x74, 0xc0, 0xc1, 0xe8, 0x1e, 0xc1, 0x0e, 0x7f, 0x2f, 0xc0,
0x83, 0x90, 0x66, 0xbf, 0x81, 0x39, 0x63, 0xbf, 0x05, 0xe5, 0x64, 0xbf,
0x25, 0xc7, 0xc4, 0x3f, 0x6f, 0x6e, 0x2b, 0xc0, 0xdf, 0x7a, 0xfc, 0x3f,
0xab, 0xde, 0x23, 0x40, 0xd2, 0xe7, 0x3c, 0x40, 0x9b, 0xf6, 0x32, 0x40,
0x70, 0x0d, 0x9e, 0x3f, 0xe8, 0xef, 0x0a, 0x3f, 0x42, 0xb5, 0x59, 0x3e,
0xc4, 0x84, 0x49, 0x3f, 0x5d, 0x43, 0x37, 0x3f, 0x0f, 0xb8, 0x31, 0x3f,
0x86, 0xfc, 0x06, 0xc0, 0x7f, 0xbe, 0x26, 0xbf, 0x7d, 0x30, 0xae, 0x3f,
0x6a, 0x43, 0x74, 0x3e, 0xe0, 0x5a, 0x2f, 0x3f, 0x51, 0x5a, 0x0d, 0x3f,
0x7a, 0xd5, 0x90, 0x3f, 0x9a, 0x72, 0x09, 0x41, 0x33, 0xae, 0xa0, 0x40,
0xaa, 0x42, 0x73, 0xbf, 0xa2, 0x2a, 0x75, 0xbf, 0x09, 0x3f, 0x74, 0xbf,
0x37, 0xa6, 0xde, 0x40, 0x38, 0x30, 0xa5, 0xbf, 0xba, 0x4a, 0xb5, 0x40,
0x4c, 0x14, 0xaa, 0xbf, 0x5c, 0x66, 0xb2, 0xbf, 0xa8, 0x6b, 0xab, 0xbf,
0xc0, 0xb0, 0xb8, 0x3f, 0x22, 0xb4, 0xc6, 0xc0, 0xc0, 0xdc, 0x26, 0x40,
0x56, 0xf0, 0xff, 0xff, 0x04, 0x00, 0x00, 0x00, 0x04, 0x0f, 0x00, 0x00,
0x21, 0x7c, 0x07, 0x80, 0xe8, 0x82, 0x06, 0x80, 0x3c, 0x98, 0x07, 0x80,
0xf4, 0x70, 0x05, 0x00, 0x82, 0x60, 0x05, 0x80, 0x0c, 0x49, 0x02, 0x00,
0xb4, 0x40, 0x08, 0x00, 0x7e, 0x0a, 0xfa, 0x96, 0x89, 0xf7, 0x0b, 0x00,
0xf0, 0x88, 0x01, 0x80, 0x88, 0xbf, 0x06, 0x00, 0xc3, 0xb2, 0x07, 0x80,
0x9e, 0xb6, 0x05, 0x80, 0xea, 0xb6, 0xc7, 0x9c, 0xcb, 0xdb, 0x07, 0x80,
0x60, 0x8c, 0x95, 0xa5, 0x6e, 0xab, 0x05, 0x00, 0x36, 0x13, 0x06, 0x00,
0x66, 0xa8, 0x07, 0x00, 0xf5, 0x3d, 0x08, 0x80, 0x15, 0x06, 0x08, 0x00,
0x96, 0x21, 0x07, 0x80, 0x3a, 0x53, 0x06, 0x80, 0x15, 0xb4, 0x06, 0x80,
0x02, 0xee, 0x05, 0x00, 0xa6, 0x55, 0x07, 0x80, 0x49, 0x11, 0x06, 0x00,
0xde, 0x73, 0x06, 0x80, 0x87, 0xf4, 0x09, 0x00, 0x20, 0xe8, 0x06, 0x80,
0x32, 0x29, 0x06, 0x00, 0xe8, 0xd5, 0x05, 0x80, 0x49, 0x96, 0x05, 0x80,
0xe3, 0xb9, 0x06, 0x00, 0x42, 0x2f, 0x06, 0x80, 0xf5, 0xec, 0x05, 0x00,
0xc5, 0x1c, 0x06, 0x00, 0xe4, 0xa5, 0x05, 0x80, 0x46, 0xf7, 0x35, 0xb3,
0xe0, 0x29, 0x08, 0x80, 0x17, 0x83, 0x07, 0x00, 0x2d, 0x0a, 0x06, 0x00,
0x8d, 0x6f, 0x06, 0x80, 0xae, 0xa3, 0x05, 0x00, 0x04, 0xb7, 0x14, 0xb2,
0xf7, 0xd4, 0x0e, 0x00, 0x96, 0xef, 0x06, 0x00, 0x37, 0xea, 0x05, 0x00,
0x8c, 0x86, 0x06, 0x80, 0xb8, 0x0b, 0x06, 0x80, 0x7d, 0x84, 0x7f, 0x96,
0x55, 0x74, 0x05, 0x00, 0x21, 0x8b, 0x06, 0x00, 0xf2, 0x7c, 0x07, 0x80,
0x43, 0xc4, 0x6a, 0x9b, 0x6f, 0x04, 0x06, 0x80, 0xfa, 0xf0, 0x06, 0x80,
0x9c, 0x0a, 0x07, 0x00, 0x4a, 0xcc, 0x05, 0x80, 0x70, 0x4d, 0x08, 0x80,
0x44, 0x6b, 0x07, 0x80, 0x6b, 0x21, 0x07, 0x80, 0xd0, 0xc1, 0xb9, 0xbe,
0x39, 0xb8, 0x1b, 0xbe, 0x10, 0xa7, 0x7c, 0xbd, 0xc3, 0x21, 0x06, 0x00,
0xb6, 0x62, 0x05, 0x00, 0x5d, 0xf0, 0x05, 0x00, 0x84, 0x2b, 0x02, 0x00,
0xc3, 0x69, 0xdd, 0xbe, 0x15, 0x3b, 0x06, 0x00, 0x86, 0x1d, 0x07, 0x80,
0xc1, 0x8e, 0x1c, 0xbe, 0x06, 0xa0, 0x8c, 0xbd, 0xc1, 0x71, 0x9b, 0xbd,
0x52, 0x9e, 0x78, 0xbe, 0x26, 0xf9, 0x07, 0x00, 0x82, 0x75, 0xde, 0xbe,
0xa9, 0x45, 0xe3, 0x3d, 0xc1, 0xe2, 0xe5, 0xbe, 0xd0, 0x2b, 0x0f, 0x80,
0x80, 0x9d, 0x65, 0xbe, 0xc7, 0xaa, 0xbc, 0xbe, 0x4a, 0xcf, 0x06, 0x00,
0xaa, 0x73, 0x9c, 0xbe, 0xa7, 0x49, 0xef, 0xbe, 0x1e, 0x2e, 0xd1, 0xbe,
0x91, 0x3d, 0x6c, 0x80, 0x6a, 0x9b, 0x70, 0xbe, 0x22, 0x09, 0xa5, 0xbe,
0x7f, 0xa7, 0x91, 0xbe, 0xba, 0x9e, 0xb6, 0xbc, 0x53, 0xca, 0x6a, 0xbc,
0xf5, 0xb3, 0x64, 0xc0, 0x48, 0x52, 0x55, 0x3c, 0x72, 0xe6, 0xda, 0xbe,
0x2e, 0x64, 0x2b, 0x37, 0x4e, 0x79, 0xcd, 0x3d, 0x96, 0x30, 0x20, 0xbd,
0xd3, 0xfe, 0x77, 0x3f, 0x5c, 0x9a, 0x39, 0xc0, 0xb7, 0x62, 0x08, 0x00,
0xdf, 0xae, 0x7a, 0x3c, 0xc1, 0x42, 0x82, 0x40, 0x57, 0x52, 0x0b, 0x3f,
0x04, 0xb5, 0x92, 0xbd, 0x48, 0x55, 0x46, 0xc0, 0x7f, 0x93, 0xe8, 0x3c,
0xaa, 0x99, 0x15, 0x3f, 0x75, 0xa1, 0x55, 0x40, 0x5b, 0x28, 0x67, 0xbf,
0x1a, 0x7c, 0x10, 0x3e, 0x50, 0xae, 0x38, 0x3e, 0x5d, 0x59, 0x06, 0xc0,
0x6b, 0x73, 0x06, 0x00, 0xa3, 0xa1, 0xd3, 0x3f, 0x76, 0x3e, 0x53, 0x40,
0xdc, 0x8d, 0xb0, 0x3e, 0x1a, 0xb3, 0x1f, 0x3f, 0xc7, 0xc9, 0x31, 0xbf,
0xb0, 0xbb, 0x8d, 0xc0, 0xba, 0xbf, 0x86, 0xc0, 0xc4, 0xf0, 0x87, 0x3e,
0x6c, 0x4c, 0xca, 0xbe, 0x49, 0x81, 0x31, 0xbf, 0xea, 0x3a, 0x84, 0xbe,
0xa1, 0xf7, 0x17, 0xbf, 0x80, 0x23, 0xeb, 0xb4, 0x0c, 0x8d, 0x25, 0x3f,
0x7f, 0xf3, 0xc4, 0xa5, 0x3c, 0xc3, 0xd9, 0xbd, 0xbf, 0x94, 0xb2, 0xbf,
0xb5, 0xf6, 0x05, 0x00, 0x7a, 0x56, 0x45, 0x3b, 0xf5, 0xb9, 0xb8, 0xbb,
0xcb, 0x5c, 0x4b, 0x40, 0xeb, 0x9e, 0x65, 0xbf, 0xff, 0xc3, 0xe8, 0xbf,
0xc5, 0x5e, 0x35, 0xbd, 0xc8, 0x3c, 0x84, 0x3f, 0xf5, 0x03, 0x81, 0x3e,
0xd5, 0xcd, 0x66, 0xbd, 0xac, 0xdd, 0x7c, 0x31, 0x90, 0x3d, 0x75, 0xbe,
0xde, 0x4c, 0x41, 0xbe, 0xc0, 0xff, 0x06, 0x00, 0x9d, 0x14, 0x68, 0x3f,
0x56, 0xe7, 0xa5, 0x3f, 0x4c, 0xba, 0x1f, 0xc0, 0x51, 0x92, 0xbf, 0xbd,
0x3b, 0x39, 0x42, 0x3e, 0x96, 0x78, 0x33, 0xbe, 0xf4, 0x41, 0x9b, 0xbd,
0x89, 0xd5, 0x2d, 0x3f, 0x46, 0x80, 0xaf, 0xbc, 0xc0, 0x45, 0x4e, 0xbd,
0xd4, 0xe8, 0x5b, 0xbe, 0x45, 0x73, 0x81, 0xaf, 0x75, 0xf0, 0x06, 0x00,
0x53, 0x5f, 0x05, 0x00, 0x84, 0xcf, 0x4f, 0x08, 0x6b, 0xf9, 0x01, 0x00,
0x52, 0x7f, 0x84, 0xbe, 0x4b, 0xb3, 0x05, 0x00, 0xbf, 0x5a, 0x05, 0x00,
0xc3, 0xc9, 0x2f, 0x0a, 0x58, 0x72, 0xd1, 0xb3, 0xd1, 0x9c, 0xd4, 0xbc,
0x99, 0x85, 0x75, 0xbe, 0x91, 0xde, 0x07, 0x00, 0x54, 0x24, 0x73, 0xbc,
0x98, 0x18, 0x30, 0x37, 0x7b, 0x6b, 0x96, 0xbc, 0xd3, 0xf3, 0x84, 0x0e,
0x39, 0xec, 0xaa, 0xb6, 0x49, 0x1f, 0x52, 0xba, 0x7c, 0x11, 0x0f, 0x80,
0x5b, 0x50, 0xbe, 0xbd, 0x28, 0xef, 0xfc, 0xbd, 0xad, 0xf7, 0x3c, 0xb5,
0x1a, 0x28, 0x39, 0x04, 0x66, 0x66, 0x0d, 0xbc, 0xe3, 0x46, 0x7b, 0xb9,
0x7d, 0xcc, 0x0f, 0xbe, 0x29, 0x45, 0xed, 0x8a, 0x7c, 0x4b, 0xe0, 0x8b,
0xc7, 0xaa, 0x05, 0x80, 0xd9, 0xa8, 0x05, 0x80, 0x80, 0x5d, 0x08, 0x80,
0xcc, 0x27, 0x07, 0x00, 0x7c, 0xa4, 0x05, 0x00, 0xbf, 0xd0, 0x05, 0x80,
0x2c, 0xd3, 0x05, 0x80, 0xb2, 0x44, 0xf1, 0x97, 0xb0, 0xbf, 0x07, 0x80,
0xb0, 0xd5, 0x07, 0x00, 0xfa, 0x8f, 0x07, 0x00, 0xdd, 0x74, 0x07, 0x80,
0xcb, 0xfa, 0x07, 0x00, 0x8f, 0x59, 0x2b, 0xa2, 0x54, 0x0e, 0x0f, 0x00,
0xb3, 0xb2, 0x06, 0x00, 0xed, 0xdd, 0x06, 0x00, 0xa0, 0x4b, 0x06, 0x00,
0x40, 0x52, 0x07, 0x00, 0x62, 0xef, 0x05, 0x00, 0x4c, 0xaa, 0x05, 0x80,
0xb0, 0x24, 0x06, 0x80, 0x40, 0x13, 0x08, 0x00, 0xe0, 0x3f, 0x07, 0x80,
0x0f, 0x75, 0x05, 0x80, 0x27, 0x7f, 0x05, 0x80, 0x61, 0xf9, 0x06, 0x00,
0xa1, 0x6d, 0x07, 0x00, 0x04, 0x0f, 0x07, 0x00, 0x06, 0x7c, 0x05, 0x00,
0xb8, 0x74, 0x07, 0x80, 0x7c, 0x3a, 0x10, 0xba, 0x45, 0x51, 0x53, 0xbe,
0x97, 0x57, 0xfb, 0xbd, 0xb7, 0x0a, 0x07, 0x00, 0xdc, 0xa8, 0x05, 0x80,
0xe4, 0x01, 0x07, 0x00, 0x35, 0x7d, 0x05, 0x80, 0x90, 0x9f, 0x95, 0xbe,
0x5e, 0x6e, 0x05, 0x00, 0xd4, 0x4d, 0x07, 0x00, 0x79, 0x1f, 0xd8, 0xba,
0x00, 0x89, 0xb8, 0xbc, 0x70, 0x8d, 0x33, 0xbd, 0xcd, 0x1a, 0x81, 0xbe,
0xd2, 0x9c, 0x05, 0x80, 0x11, 0x4e, 0xa7, 0x1e, 0x70, 0x59, 0x3b, 0xbe,
0x58, 0xff, 0x31, 0xbe, 0x23, 0x23, 0x08, 0x80, 0x38, 0xc6, 0xab, 0xbd,
0xa3, 0x47, 0xab, 0xb3, 0xab, 0x25, 0x06, 0x00, 0x7c, 0xbd, 0xb5, 0xbd,
0xa3, 0xcf, 0x6c, 0xbe, 0x34, 0xe1, 0xc4, 0xbd, 0xf4, 0x0d, 0x80, 0x9f,
0x09, 0x23, 0x93, 0xbd, 0x4b, 0x2e, 0x98, 0x39, 0xed, 0x89, 0xfb, 0xbd,
0x3c, 0xd7, 0x33, 0xb4, 0xb5, 0xbd, 0x58, 0xb2, 0xe5, 0x24, 0x8a, 0x96,
0x4c, 0x23, 0x73, 0xb5, 0x5f, 0xc8, 0xec, 0x8b, 0xc1, 0xf3, 0x06, 0x00,
0x3f, 0x60, 0x05, 0x00, 0x83, 0x37, 0x06, 0x00, 0x66, 0x58, 0x06, 0x00,
0x4a, 0x6e, 0x57, 0xbc, 0xb2, 0x4a, 0x08, 0x00, 0x3c, 0x03, 0x01, 0x80,
0x42, 0x91, 0x06, 0x00, 0xae, 0x23, 0x07, 0x00, 0x10, 0x99, 0x07, 0x80,
0x60, 0x88, 0xba, 0xbb, 0x3f, 0xe4, 0x06, 0x80, 0x9e, 0xce, 0x51, 0x0a,
0x17, 0xe6, 0x05, 0x00, 0x2c, 0xaf, 0x02, 0x80, 0xae, 0x57, 0x05, 0x00,
0xb7, 0x7a, 0xb2, 0xb5, 0x7b, 0xf1, 0x06, 0x80, 0x35, 0x71, 0x01, 0x00,
0x1b, 0xf5, 0x7c, 0x89, 0x3f, 0x55, 0xc9, 0xb3, 0xcb, 0xf0, 0x9a, 0x24,
0x3c, 0x24, 0x08, 0x00, 0xbc, 0x34, 0x07, 0x80, 0x9e, 0x58, 0x05, 0x00,
0xd1, 0x7a, 0x9c, 0xa2, 0xce, 0xaf, 0x05, 0x80, 0xe4, 0x78, 0x07, 0x00,
0x3e, 0x0f, 0x1b, 0x3d, 0x4c, 0xcf, 0x70, 0x3f, 0xa8, 0x03, 0x53, 0xbe,
0x71, 0xad, 0x6f, 0x38, 0xf9, 0xcd, 0xc3, 0xbd, 0xff, 0x13, 0xcd, 0xbd,
0xd9, 0x1b, 0x94, 0xbf, 0xa6, 0x69, 0xd4, 0xbe, 0xa0, 0xcc, 0x07, 0xa0,
0x1f, 0x82, 0x87, 0xbe, 0xfc, 0x2e, 0xa4, 0x3e, 0x49, 0x96, 0x29, 0x3f,
0xd5, 0x0c, 0x41, 0x3f, 0x8e, 0x48, 0xa0, 0x3f, 0xc6, 0x3a, 0xca, 0xbe,
0x8b, 0x86, 0xd4, 0x3e, 0x81, 0x9a, 0x06, 0x3d, 0xbc, 0xa5, 0x7d, 0x3c,
0xee, 0xad, 0xeb, 0xbd, 0xfb, 0x6e, 0xfc, 0xbe, 0x54, 0xd1, 0x8e, 0xbd,
0x69, 0x13, 0x07, 0x00, 0xf4, 0x4d, 0xd0, 0x3e, 0x1b, 0x47, 0xb0, 0x3e,
0xf9, 0x7f, 0x12, 0xbf, 0xba, 0x35, 0xa0, 0xbe, 0xc3, 0x48, 0xe6, 0x3e,
0x25, 0xf6, 0x91, 0xbf, 0x8f, 0xcf, 0x94, 0x3e, 0x6c, 0x41, 0xcc, 0xbe,
0xa9, 0x60, 0xb0, 0xbe, 0x5b, 0x8d, 0x05, 0x00, 0xb9, 0xb1, 0x06, 0x00,
0xa7, 0x78, 0x07, 0x00, 0xea, 0xe2, 0x05, 0x00, 0xff, 0x92, 0x05, 0x00,
0xcc, 0x2d, 0x08, 0x80, 0xdb, 0x76, 0x07, 0x80, 0x40, 0x6a, 0x86, 0x8c,
0xbe, 0x3f, 0x07, 0x00, 0x7c, 0x65, 0x05, 0x00, 0x24, 0xa0, 0x05, 0x00,
0x09, 0x40, 0x08, 0x00, 0x1b, 0x50, 0x08, 0x80, 0xb4, 0x91, 0x05, 0x00,
0x33, 0x40, 0x07, 0x80, 0x07, 0x1a, 0x07, 0x80, 0xc0, 0xc2, 0x06, 0x80,
0x24, 0xab, 0x05, 0x80, 0xc8, 0x58, 0x05, 0x00, 0x32, 0x91, 0x05, 0x00,
0x3c, 0xfc, 0x06, 0x80, 0x77, 0x62, 0x05, 0x00, 0xa8, 0x2b, 0x08, 0x00,
0xb3, 0x95, 0x06, 0x80, 0xa2, 0xcd, 0x05, 0x00, 0x40, 0xce, 0x06, 0x80,
0xca, 0x05, 0x07, 0x00, 0x1e, 0x39, 0x06, 0x80, 0xff, 0x82, 0x05, 0x00,
0x8f, 0xeb, 0x07, 0x00, 0x74, 0x4e, 0x07, 0x80, 0x8e, 0x52, 0x4d, 0xbe,
0x55, 0x47, 0x47, 0xbe, 0xfd, 0xac, 0x07, 0x00, 0x19, 0x84, 0x06, 0x00,
0xc6, 0x57, 0x05, 0x00, 0x41, 0x77, 0x05, 0x80, 0x29, 0x24, 0x02, 0x00,
0x50, 0x69, 0x6a, 0xbe, 0x81, 0x7c, 0x05, 0x00, 0x4d, 0x98, 0x05, 0x00,
0xa8, 0xc0, 0xeb, 0xbd, 0x83, 0xd8, 0xa5, 0x2f, 0xa0, 0x70, 0xa5, 0x0f,
0x82, 0x3d, 0x82, 0xbe, 0xaf, 0x69, 0x0c, 0x00, 0xc0, 0x93, 0x04, 0xbe,
0xd3, 0x4b, 0xa9, 0x3a, 0xf6, 0xa8, 0xe6, 0xb9, 0xf4, 0x68, 0x06, 0x00,
0xca, 0x6f, 0x1b, 0xbd, 0xb0, 0x78, 0x90, 0xbe, 0x2c, 0x69, 0x07, 0x80,
0x83, 0x08, 0x21, 0xbe, 0xf2, 0xe6, 0xb8, 0xbd, 0x77, 0xb9, 0x02, 0xbd,
0xe7, 0x96, 0x05, 0x00, 0x5d, 0x18, 0x80, 0xbc, 0xc2, 0x69, 0x64, 0x06,
0x24, 0x31, 0x8f, 0xbe, 0x92, 0x1c, 0xea, 0xbc, 0xaa, 0x06, 0x13, 0xb3,
0xb0, 0xce, 0x79, 0xbe, 0x2c, 0x0f, 0xaa, 0xbd, 0x8b, 0xe9, 0x18, 0xbe,
0xc5, 0xb3, 0x05, 0x80, 0xa4, 0x6d, 0x05, 0x00, 0xbc, 0xc6, 0x05, 0x00,
0x66, 0xb4, 0x07, 0x80, 0xbb, 0x25, 0xb1, 0xbe, 0x48, 0x5a, 0x08, 0x80,
0xc0, 0x17, 0x0c, 0x00, 0xde, 0xa8, 0x3e, 0xb9, 0xa1, 0xd6, 0xea, 0xbd,
0x11, 0x19, 0x38, 0xbb, 0x2e, 0xed, 0x6a, 0xbe, 0xf5, 0x27, 0x0a, 0x00,
0xaa, 0x69, 0xc4, 0xbe, 0xd6, 0xd0, 0xa0, 0xbd, 0xa5, 0x3f, 0x6e, 0xbe,
0xed, 0x87, 0x05, 0x00, 0x8e, 0x3d, 0x8a, 0xbd, 0xfe, 0xcd, 0x30, 0xbe,
0xe0, 0xf7, 0x07, 0x80, 0x34, 0x69, 0x39, 0xbd, 0x15, 0x5f, 0x5a, 0xbe,
0x25, 0xde, 0xeb, 0xbd, 0x5f, 0x0a, 0x06, 0x00, 0x4b, 0xeb, 0xf0, 0xbd,
0x93, 0x2e, 0x39, 0xbd, 0x72, 0xc5, 0xa7, 0xbd, 0xcf, 0x3e, 0xb1, 0xbd,
0x79, 0x7e, 0x31, 0x36, 0xdd, 0x47, 0x91, 0xbc, 0xda, 0xb8, 0xfa, 0xbb,
0x5f, 0xae, 0xc0, 0xbb, 0x1c, 0x24, 0x0a, 0x80, 0xe0, 0x5e, 0x05, 0x00,
0x58, 0x92, 0x06, 0x80, 0x27, 0x6f, 0x0b, 0x80, 0x78, 0xb1, 0x91, 0xbd,
0x2e, 0x4e, 0x06, 0x00, 0x78, 0xc3, 0x07, 0x00, 0x35, 0x0c, 0x5e, 0x11,
0xe1, 0xd3, 0x05, 0x00, 0xe3, 0xd3, 0x07, 0x00, 0x2b, 0xc0, 0xb8, 0xbc,
0x50, 0xcb, 0x07, 0x00, 0x50, 0x60, 0x84, 0x05, 0x1c, 0xbf, 0x05, 0x00,
0xec, 0x97, 0x08, 0x00, 0x4f, 0xba, 0x07, 0x00, 0xed, 0x94, 0x5c, 0xba,
0x7d, 0xfa, 0x52, 0xbb, 0x85, 0x75, 0x07, 0x00, 0x16, 0x8e, 0x9e, 0xa6,
0xf0, 0x04, 0x4f, 0xbb, 0x93, 0xe8, 0x84, 0x8a, 0x73, 0x99, 0x06, 0x80,
0xd5, 0x58, 0x48, 0x80, 0x88, 0x40, 0xc6, 0x8c, 0xc4, 0xfd, 0x29, 0xb3,
0xac, 0x3c, 0x08, 0x00, 0x52, 0x6f, 0x06, 0x00, 0xb5, 0xba, 0xc2, 0xbe,
0xdb, 0x86, 0x01, 0xbd, 0x23, 0x62, 0x07, 0xbe, 0xa6, 0xe2, 0x06, 0x80,
0x4b, 0x64, 0x05, 0x00, 0xb6, 0x6c, 0x06, 0x80, 0xbf, 0x5c, 0x06, 0x00,
0xe3, 0x03, 0x24, 0xbe, 0xbc, 0xf4, 0x07, 0x80, 0x64, 0x9e, 0x05, 0x80,
0x90, 0x97, 0xed, 0x3b, 0x6e, 0xc6, 0xfe, 0xbc, 0x0f, 0x30, 0x14, 0xbe,
0xd4, 0x62, 0xd6, 0xbd, 0x49, 0x03, 0x08, 0x80, 0xee, 0x95, 0x91, 0xbe,
0xfe, 0x09, 0x07, 0xbe, 0x4d, 0x0e, 0xd5, 0xbd, 0x4f, 0xc9, 0x0a, 0x00,
0x0d, 0x2f, 0x02, 0xbe, 0x49, 0x7b, 0xb1, 0xbd, 0x39, 0x43, 0x07, 0x00,
0x99, 0xef, 0x48, 0xbe, 0x69, 0xfa, 0x1c, 0xbe, 0xb7, 0xd3, 0x09, 0xbe,
0x1a, 0x79, 0xde, 0x37, 0x70, 0x46, 0x08, 0xbe, 0xcf, 0xff, 0x2e, 0xbe,
0xa8, 0x03, 0x52, 0xbe, 0x4e, 0x68, 0x01, 0xb4, 0xeb, 0x2f, 0xec, 0xbb,
0x12, 0x10, 0x06, 0x80, 0xe2, 0x9a, 0xd4, 0x13, 0x7f, 0x76, 0x05, 0x80,
0x9c, 0x8d, 0x05, 0x80, 0x31, 0x81, 0x05, 0x80, 0xd6, 0x69, 0x0a, 0x00,
0xdf, 0xfc, 0x06, 0x80, 0xb3, 0xb8, 0xd4, 0xae, 0xea, 0x25, 0x08, 0x80,
0x33, 0x53, 0x08, 0x00, 0x33, 0xc3, 0x05, 0x80, 0xe3, 0x1e, 0x06, 0x00,
0x5e, 0x28, 0x08, 0x80, 0x31, 0x41, 0xa5, 0xb2, 0xbd, 0x2e, 0x0c, 0x80,
0x22, 0xcc, 0x06, 0x00, 0x29, 0xf0, 0x07, 0x80, 0x47, 0xfc, 0x06, 0x00,
0x41, 0x80, 0x05, 0x80, 0x6a, 0xdf, 0x06, 0x00, 0xc8, 0xbd, 0x06, 0x80,
0x57, 0x0e, 0x0f, 0x80, 0x6a, 0xda, 0x05, 0x80, 0x80, 0x28, 0x06, 0x00,
0x69, 0x0e, 0x07, 0x80, 0x28, 0x3c, 0x07, 0x80, 0x41, 0x2b, 0x07, 0x80,
0xae, 0x43, 0x06, 0x00, 0x56, 0x03, 0x07, 0x80, 0x6f, 0xca, 0x07, 0x00,
0x7d, 0xd0, 0x05, 0x80, 0x6f, 0x21, 0xb4, 0xbc, 0x8b, 0x2c, 0x81, 0xbe,
0xed, 0xa2, 0xc6, 0xbd, 0x2c, 0xfa, 0x07, 0x80, 0x3f, 0x62, 0x05, 0x00,
0x1f, 0x48, 0x01, 0x80, 0x20, 0x9e, 0x06, 0x00, 0x18, 0xa0, 0x94, 0xbe,
0x71, 0xce, 0x06, 0x80, 0xe0, 0x8d, 0x07, 0x00, 0x93, 0x44, 0x83, 0xbd,
0xa6, 0x41, 0x59, 0x3c, 0x9f, 0x9a, 0xcc, 0xbd, 0x75, 0x49, 0x91, 0xbe,
0x4e, 0xca, 0x07, 0x00, 0x9f, 0xb5, 0xca, 0xbd, 0x11, 0xbd, 0x39, 0xbe,
0xbf, 0x85, 0xd9, 0xbc, 0xd9, 0xf0, 0x07, 0x00, 0x00, 0xd4, 0x9a, 0xb5,
0xd4, 0x00, 0x99, 0x3d, 0x47, 0xb5, 0x06, 0x80, 0x68, 0xb7, 0x38, 0xbd,
0xe6, 0xcf, 0x3e, 0xbe, 0x83, 0x7b, 0x20, 0x23, 0xa5, 0x58, 0x10, 0x00,
0xb5, 0x4a, 0xee, 0xb6, 0x56, 0xc0, 0x3e, 0xbd, 0x79, 0x91, 0x7a, 0xbe,
0xb7, 0x8f, 0x6a, 0xb2, 0x07, 0x0f, 0x90, 0xb9, 0x04, 0x85, 0xac, 0xbe,
0x28, 0x9a, 0xd1, 0xbe, 0xeb, 0xce, 0xfa, 0xbe, 0xe6, 0xff, 0x5d, 0xb5,
0x97, 0x60, 0x05, 0x00, 0x45, 0xe1, 0x07, 0x80, 0xa4, 0xc8, 0x07, 0x00,
0x8f, 0x80, 0xa0, 0xbe, 0xcb, 0x78, 0x0a, 0x00, 0x80, 0x78, 0x05, 0x00,
0x81, 0x30, 0xe3, 0xbe, 0xa7, 0x88, 0xa4, 0x3d, 0x77, 0x01, 0x44, 0xbe,
0x3a, 0xc2, 0xae, 0xbe, 0xf7, 0x9b, 0x01, 0x00, 0xc2, 0x51, 0xbc, 0xbe,
0x1b, 0xfb, 0x01, 0xbf, 0x6f, 0x32, 0xc4, 0xbe, 0xa1, 0x9b, 0x06, 0x00,
0xe5, 0x85, 0xd5, 0xbe, 0x14, 0xb4, 0x98, 0xbe, 0xbe, 0x29, 0x0b, 0x00,
0xa2, 0x10, 0x99, 0xbe, 0x11, 0xe7, 0xb9, 0xbe, 0x18, 0x88, 0xb4, 0xbe,
0x36, 0x2f, 0x69, 0xbe, 0x1e, 0x17, 0x09, 0xbe, 0x1e, 0xd3, 0xc4, 0xbe,
0x70, 0x91, 0xc8, 0xbe, 0x3c, 0xf0, 0x24, 0x3e, 0xa6, 0x21, 0xcb, 0xbe,
0x71, 0x26, 0x1f, 0xb9, 0xe6, 0xe3, 0xa7, 0xbd, 0xa1, 0x83, 0xdf, 0x31,
0x72, 0x5f, 0x07, 0x00, 0xf8, 0xef, 0x06, 0x80, 0xe0, 0x47, 0x08, 0x80,
0x69, 0x38, 0x06, 0x00, 0x28, 0x5c, 0x4d, 0xbe, 0xd5, 0xb1, 0x07, 0x80,
0x2a, 0xf8, 0x06, 0x80, 0xb1, 0x9f, 0x02, 0xb1, 0x44, 0xe6, 0x05, 0x00,
0x6d, 0x41, 0xa0, 0xa5, 0xcf, 0x78, 0x5d, 0xbe, 0x13, 0x45, 0x08, 0x80,
0x1d, 0xd0, 0xd3, 0xbb, 0x1f, 0x98, 0x6c, 0xac, 0x7c, 0x77, 0x47, 0x01,
0x22, 0x64, 0x0c, 0x80, 0xb6, 0x6b, 0xba, 0xb7, 0x7b, 0xa3, 0x79, 0xab,
0x48, 0xc1, 0x05, 0x80, 0xe4, 0xed, 0x99, 0xb0, 0x0c, 0x1e, 0x46, 0xb6,
0x99, 0xb0, 0xec, 0x33, 0x15, 0x61, 0x05, 0x00, 0x47, 0x26, 0x0a, 0x9d,
0x73, 0xd8, 0x26, 0xb5, 0x92, 0xa2, 0x61, 0xbb, 0x15, 0xbc, 0x49, 0x99,
0x6f, 0xc3, 0xb0, 0x99, 0x29, 0x2b, 0xe4, 0x36, 0x8f, 0x10, 0x08, 0x00,
0x64, 0x3b, 0x82, 0xbd, 0xe8, 0x68, 0x06, 0x80, 0xa4, 0x03, 0x08, 0x80,
0x50, 0xf3, 0x07, 0x00, 0xf0, 0x26, 0x06, 0x00, 0xb1, 0x9b, 0xea, 0x3e,
0x9b, 0xa1, 0x06, 0x80, 0x99, 0xa8, 0x06, 0x00, 0x47, 0xc4, 0x9e, 0xb8,
0xb4, 0x51, 0x06, 0x00, 0xf6, 0x2a, 0x08, 0x00, 0xed, 0x2a, 0x55, 0xbd,
0xaa, 0x0c, 0x07, 0x80, 0xa4, 0x73, 0x2d, 0x37, 0x11, 0x7b, 0xcc, 0x3b,
0x0e, 0x18, 0xe4, 0xbb, 0xc6, 0x59, 0x06, 0x80, 0x7c, 0xf8, 0x96, 0xbc,
0x1a, 0xe4, 0x07, 0x00, 0xec, 0xc2, 0x07, 0x80, 0x50, 0x26, 0x08, 0x00,
0x14, 0x4d, 0xfa, 0x3a, 0xdb, 0x50, 0x3e, 0xbc, 0x0c, 0x5c, 0x90, 0x35,
0xa0, 0x7b, 0x07, 0x80, 0x9d, 0xb5, 0x05, 0x00, 0xfc, 0xc6, 0x07, 0x80,
0xc3, 0x2a, 0x07, 0x80, 0x5b, 0xe0, 0xab, 0xbc, 0x7e, 0x70, 0x05, 0x80,
0xcd, 0x24, 0x06, 0x00, 0x62, 0xbd, 0x05, 0x80, 0xa4, 0x10, 0x0f, 0x00,
0x17, 0x58, 0x05, 0x00, 0xab, 0x9d, 0x05, 0x00, 0xee, 0x23, 0x06, 0x80,
0xcd, 0x59, 0xb9, 0x9e, 0xc4, 0x81, 0x05, 0x80, 0x66, 0xa1, 0x07, 0x00,
0xf3, 0x5d, 0x05, 0x00, 0x4d, 0xf1, 0x06, 0x00, 0x02, 0xae, 0x07, 0x80,
0x36, 0x40, 0x5a, 0x9f, 0x74, 0xd1, 0x06, 0x00, 0xde, 0xa5, 0x05, 0x00,
0xa2, 0xee, 0x07, 0x00, 0x19, 0xa1, 0x05, 0x80, 0x70, 0x07, 0x0f, 0x00,
0xac, 0xc3, 0x07, 0x00, 0xba, 0x0e, 0x06, 0x00, 0x60, 0xff, 0x06, 0x00,
0xbd, 0x41, 0x06, 0x00, 0x72, 0xc4, 0x07, 0x80, 0xf3, 0xce, 0x05, 0x00,
0xab, 0x82, 0x06, 0x00, 0xba, 0x5b, 0x05, 0x80, 0xb7, 0xb4, 0x07, 0x00,
0xbd, 0x31, 0x08, 0x00, 0x60, 0x3d, 0x06, 0x80, 0x81, 0x19, 0x07, 0x00,
0x19, 0xb7, 0x02, 0x3e, 0xd8, 0x2b, 0x4f, 0x3f, 0xe9, 0x84, 0xce, 0x3f,
0x7d, 0x35, 0x2e, 0x36, 0x45, 0x34, 0x6c, 0xbe, 0xc2, 0x82, 0x90, 0x3d,
0x27, 0x8f, 0x16, 0xbe, 0x79, 0xef, 0x66, 0x40, 0xab, 0x97, 0x06, 0x00,
0xb9, 0x27, 0xcf, 0x3d, 0x87, 0x50, 0xfd, 0x3f, 0xba, 0xbb, 0xda, 0xbd,
0x3e, 0x0d, 0x00, 0x3f, 0x8d, 0x36, 0xac, 0x40, 0x84, 0x03, 0x7a, 0x3e,
0x58, 0x43, 0x33, 0x3f, 0xd6, 0x4c, 0x4b, 0x40, 0xae, 0xeb, 0x5e, 0x40,
0x51, 0x63, 0xf2, 0x3c, 0x72, 0x44, 0x83, 0x40, 0xdd, 0x8d, 0x5c, 0xc0,
0xf5, 0xdb, 0x05, 0x00, 0x04, 0xae, 0x50, 0xbf, 0x94, 0x1e, 0x5d, 0x3f,
0x2d, 0x56, 0x30, 0x3f, 0x42, 0xd6, 0x36, 0x40, 0xdf, 0x50, 0x16, 0xc0,
0xe6, 0x3a, 0x76, 0x3e, 0x31, 0x9c, 0xcf, 0x3f, 0x6f, 0x84, 0x8c, 0x3c,
0x81, 0xbe, 0x8d, 0x40, 0xc0, 0x7a, 0x5c, 0xbd, 0x28, 0xa7, 0xdf, 0x3c,
0xa1, 0xf2, 0xa6, 0xba, 0x8f, 0x5d, 0x05, 0x00, 0x8e, 0x61, 0x05, 0x80,
0xa8, 0x71, 0x05, 0x00, 0xaf, 0xe2, 0x06, 0x00, 0x52, 0x26, 0x88, 0xbe,
0x98, 0xa7, 0x07, 0x80, 0x4b, 0xe5, 0x06, 0x80, 0xaf, 0xdf, 0x4e, 0xbc,
0xfa, 0x66, 0xde, 0xbc, 0xee, 0x3b, 0x12, 0xbd, 0xc7, 0x35, 0x39, 0xbe,
0x93, 0xc8, 0x05, 0x80, 0x5e, 0xab, 0xe4, 0xbc, 0xb8, 0x33, 0x7c, 0xbc,
0xb5, 0xd8, 0x9c, 0xbd, 0xee, 0x3a, 0x07, 0x80, 0x3c, 0x52, 0x58, 0xbe,
0xef, 0x96, 0xd3, 0x3a, 0xd8, 0x43, 0x08, 0x80, 0x74, 0x93, 0xb5, 0x3b,
0xbb, 0x9a, 0x55, 0xbe, 0x81, 0x0f, 0x01, 0xbd, 0x10, 0xc4, 0x9d, 0xa4,
0x07, 0x75, 0x51, 0xbd, 0x46, 0xaf, 0xd4, 0xbc, 0x8e, 0x13, 0x15, 0xbd,
0xa4, 0x00, 0x25, 0xbc, 0xfa, 0x87, 0x24, 0xb9, 0xa6, 0x95, 0x09, 0xc0,
0x87, 0x5c, 0xb6, 0x3f, 0x08, 0x53, 0x63, 0xbf, 0x50, 0x40, 0x17, 0x36,
0xad, 0x58, 0xfa, 0xbd, 0xce, 0x72, 0x16, 0xbe, 0x2e, 0xfa, 0x07, 0x00,
0xec, 0xaf, 0x62, 0x3f, 0x61, 0xd8, 0x05, 0x80, 0xf3, 0xc1, 0xbc, 0xbe,
0xa9, 0x3c, 0x10, 0xc0, 0x08, 0xda, 0x97, 0xbf, 0xf5, 0x7a, 0xf7, 0xbc,
0xf3, 0x71, 0x23, 0x3e, 0x7b, 0x23, 0xab, 0xbe, 0xd8, 0x59, 0x04, 0x3f,
0x81, 0x41, 0xb9, 0xbd, 0x36, 0xcd, 0x8f, 0xbd, 0xbd, 0x28, 0x87, 0xbe,
0xeb, 0xaa, 0xb7, 0x3f, 0xbb, 0x0d, 0xd5, 0xbf, 0x1d, 0x48, 0x06, 0x00,
0x9a, 0xf2, 0x62, 0xbf, 0x6a, 0xb7, 0x47, 0xc1, 0x9b, 0x8f, 0xa3, 0xc0,
0x57, 0x9a, 0x71, 0x3e, 0x8a, 0x05, 0xdd, 0xbe, 0x38, 0x7a, 0x9b, 0xbf,
0x8d, 0x7d, 0x68, 0xbf, 0xd5, 0x75, 0x2b, 0x40, 0x99, 0x7e, 0xa7, 0x3e,
0x8f, 0x25, 0x07, 0x00, 0xa0, 0xca, 0x05, 0x00, 0x09, 0x84, 0x07, 0x80,
0x30, 0x3d, 0x08, 0x00, 0x3e, 0x69, 0x05, 0x00, 0xc3, 0xc2, 0x0e, 0x00,
0xf5, 0xa0, 0x05, 0x80, 0x9d, 0x31, 0xb1, 0x9c, 0x1c, 0x81, 0x01, 0x80,
0x10, 0xc5, 0x01, 0x80, 0x9d, 0xd7, 0x05, 0x00, 0x5a, 0xc1, 0x05, 0x00,
0x8e, 0x5c, 0x05, 0x00, 0x03, 0x6f, 0x05, 0x9c, 0x37, 0x59, 0x0c, 0x80,
0x55, 0xe2, 0x06, 0x80, 0x06, 0xfa, 0x07, 0x80, 0xb0, 0x27, 0x06, 0x80,
0xb3, 0x01, 0x06, 0x00, 0xc1, 0xa0, 0x07, 0x80, 0x8e, 0xbd, 0x05, 0x80,
0x4c, 0x99, 0x0b, 0x80, 0x82, 0x5e, 0x06, 0x00, 0x9f, 0x98, 0x05, 0x00,
0xd8, 0x71, 0x06, 0x80, 0x87, 0x5d, 0x05, 0x80, 0x53, 0xda, 0x07, 0x00,
0x28, 0x28, 0x08, 0x80, 0x36, 0x5c, 0x05, 0x80, 0x63, 0x97, 0x06, 0x00,
0xa2, 0xfd, 0x05, 0x80, 0xd0, 0x81, 0xe8, 0xb0, 0xac, 0x32, 0x6b, 0xba,
0x21, 0xda, 0x39, 0xa2, 0x3e, 0xad, 0x05, 0x80, 0x57, 0xdc, 0x06, 0x80,
0xdd, 0xe9, 0x05, 0x00, 0xe7, 0xde, 0x07, 0x80, 0xd9, 0xa3, 0x59, 0xbd,
0x01, 0x80, 0x06, 0x00, 0x7c, 0xc6, 0x07, 0x00, 0x58, 0xf3, 0x06, 0x00,
0x61, 0x02, 0x07, 0x00, 0x91, 0xf0, 0x05, 0x80, 0x16, 0xb8, 0x9a, 0xbc,
0x76, 0xb0, 0x0b, 0x00, 0xe2, 0xb5, 0x60, 0xb2, 0x99, 0x8e, 0xbf, 0xaa,
0x4e, 0x36, 0xf1, 0xbb, 0xf7, 0x6e, 0x0c, 0x80, 0x08, 0x83, 0xc8, 0xb9,
0x84, 0xf4, 0x05, 0x00, 0x8f, 0x71, 0x06, 0x80, 0xb7, 0x4a, 0xc9, 0xb4,
0x5c, 0xf4, 0x76, 0xba, 0x1b, 0x0b, 0x07, 0xaf, 0x46, 0xab, 0x07, 0x80,
0x96, 0x9e, 0xfa, 0xa4, 0x47, 0xa3, 0x07, 0x00, 0x32, 0xbd, 0x1a, 0xb6,
0xae, 0x42, 0x07, 0x80, 0xc6, 0x1d, 0x07, 0x00, 0x62, 0xe6, 0x05, 0x80,
0xbf, 0x47, 0xf3, 0xaf, 0xb7, 0x18, 0x06, 0x80, 0x94, 0x61, 0x08, 0x80,
0x48, 0x66, 0x05, 0x00, 0x7c, 0xc6, 0x07, 0x00, 0x72, 0x6d, 0x07, 0x00,
0x22, 0x21, 0x4e, 0xb8, 0xdd, 0xd9, 0x01, 0x80, 0x83, 0xa5, 0x07, 0x00,
0x20, 0xfb, 0x06, 0x00, 0xed, 0x59, 0x06, 0x00, 0x05, 0x9b, 0x07, 0x00,
0x35, 0x8e, 0xa7, 0xb8, 0x35, 0x9c, 0x07, 0x80, 0x9d, 0xd5, 0x06, 0x80,
0xf5, 0x8c, 0x06, 0x80, 0xb9, 0xfa, 0x04, 0x80, 0xa0, 0x75, 0x0c, 0x80,
0x60, 0x9e, 0xc4, 0x29, 0xf3, 0x18, 0x06, 0x00, 0x58, 0x0f, 0x06, 0x80,
0x8a, 0xcf, 0x87, 0x9f, 0x8c, 0x39, 0x15, 0xa9, 0xf9, 0xd2, 0x05, 0x00,
0x53, 0x28, 0x07, 0x80, 0x75, 0x3d, 0x05, 0xa4, 0xbe, 0x25, 0x07, 0x80,
0xcd, 0xe1, 0x06, 0x00, 0x12, 0x02, 0x06, 0x00, 0xae, 0x05, 0x08, 0x80,
0xfb, 0x80, 0x05, 0x80, 0xad, 0x97, 0xb3, 0xad, 0xc7, 0x6a, 0x05, 0x00,
0x0f, 0x04, 0x0f, 0x00, 0x15, 0xa7, 0x05, 0x00, 0x0c, 0x53, 0x06, 0x00,
0xb0, 0x23, 0x06, 0x80, 0xe8, 0x14, 0x6a, 0xb7, 0xa4, 0x72, 0x06, 0x00,
0xb0, 0x29, 0x01, 0x00, 0xc3, 0x48, 0x07, 0x00, 0x5e, 0x23, 0x07, 0x00,
0xc6, 0x2f, 0x06, 0x00, 0xd0, 0x19, 0x05, 0xb1, 0xb9, 0xb3, 0x0f, 0x00,
0xdc, 0x1c, 0x1c, 0x80, 0x69, 0x6e, 0x05, 0x80, 0xae, 0x58, 0x05, 0x80,
0x45, 0x16, 0x07, 0x00, 0x80, 0x99, 0xd6, 0xa8, 0xb2, 0xf9, 0x07, 0x00,
0x69, 0xc9, 0x07, 0x00, 0x6b, 0x02, 0x06, 0x00, 0x24, 0xdd, 0x05, 0x00,
0x5f, 0x6b, 0x07, 0x80, 0x00, 0x9b, 0x05, 0x00, 0x3d, 0x4e, 0x07, 0x80,
0x1d, 0x8c, 0x06, 0x80, 0x7c, 0xc1, 0xa3, 0x8b, 0xbb, 0x35, 0x08, 0x00,
0xa1, 0x47, 0x07, 0x80, 0x54, 0xb1, 0x66, 0xbd, 0xe7, 0x37, 0x07, 0x80,
0x9b, 0x1f, 0x63, 0xbc, 0xdd, 0xf6, 0x07, 0x80, 0x99, 0x5e, 0x05, 0x80,
0xfe, 0x8c, 0x07, 0x00, 0xaa, 0x9d, 0xc6, 0x3a, 0xa2, 0x31, 0x17, 0xbf,
0x21, 0x1b, 0x07, 0x80, 0xe6, 0x83, 0x06, 0x80, 0xb1, 0x19, 0x82, 0xbd,
0x6d, 0xe1, 0x0e, 0x80, 0xcb, 0x7f, 0x75, 0xbb, 0xf7, 0x06, 0x05, 0xbf,
0x41, 0x9f, 0x06, 0x00, 0x2a, 0x32, 0x2b, 0x80, 0xd9, 0x9d, 0xb2, 0x3d,
0x02, 0x2e, 0x00, 0x3e, 0xbf, 0x25, 0x26, 0xb2, 0x61, 0x66, 0x5c, 0x3f,
0x8b, 0xf2, 0x56, 0xbd, 0x04, 0xeb, 0x06, 0x00, 0x96, 0xfc, 0x1f, 0x3c,
0xc9, 0x69, 0x5e, 0xbe, 0x22, 0x10, 0xcf, 0xbc, 0xa7, 0x96, 0x06, 0x00,
0x78, 0x83, 0xbe, 0xb9, 0x72, 0x14, 0x08, 0x80, 0x08, 0x9c, 0x05, 0x00,
0xf5, 0xf5, 0x06, 0x80, 0xb0, 0x52, 0x68, 0x82, 0x66, 0x04, 0x07, 0x80,
0x44, 0x7d, 0x06, 0x80, 0x16, 0xe2, 0x00, 0x10, 0x8d, 0xef, 0x06, 0x00,
0x0c, 0xc1, 0x05, 0x80, 0xae, 0x34, 0x08, 0x80, 0x80, 0xf1, 0x05, 0x80,
0x57, 0x1b, 0x30, 0xb9, 0xe2, 0x0d, 0x0c, 0x00, 0x40, 0x53, 0x08, 0x80,
0x77, 0x0a, 0x06, 0x00, 0xc1, 0xea, 0x07, 0x80, 0xf7, 0x5a, 0x05, 0x00,
0x10, 0x56, 0x07, 0x00, 0x59, 0xbe, 0x0a, 0x80, 0xb9, 0x4a, 0x06, 0x80,
0x09, 0x1c, 0xde, 0xab, 0x0d, 0x7c, 0x06, 0xa5, 0x74, 0xe4, 0x06, 0x00,
0x4d, 0x3d, 0x06, 0x80, 0x0a, 0x57, 0x06, 0x00, 0x19, 0x15, 0x06, 0x80,
0x3c, 0xab, 0x05, 0x80, 0x69, 0xf9, 0x57, 0x10, 0x32, 0x3a, 0x07, 0x80,
0x07, 0xa1, 0x51, 0x80, 0xb1, 0xfd, 0x05, 0x00, 0x7a, 0xaa, 0x05, 0x80,
0x7d, 0x02, 0x07, 0x00, 0x7a, 0x42, 0x08, 0x80, 0x37, 0x4c, 0x06, 0x00,
0x18, 0x92, 0xcf, 0xb9, 0x6e, 0x21, 0x02, 0x3d, 0x85, 0xea, 0x57, 0xb7,
0xf3, 0xdf, 0x05, 0x80, 0xaf, 0x6d, 0x05, 0x80, 0xf0, 0xbb, 0x05, 0x80,
0xab, 0x3c, 0x1c, 0x87, 0xc5, 0xe8, 0x71, 0xbd, 0x0f, 0x20, 0x01, 0x80,
0xd6, 0xee, 0x09, 0x00, 0x70, 0x39, 0xdf, 0x33, 0x84, 0xe5, 0x41, 0xb6,
0x73, 0x57, 0xd9, 0xa3, 0xee, 0x2b, 0x44, 0xbd, 0x4b, 0x28, 0x01, 0x00,
0xc6, 0x24, 0x29, 0xb9, 0x5b, 0x13, 0x37, 0x36, 0xa0, 0xb5, 0xa9, 0x3a,
0x9e, 0x57, 0x05, 0x00, 0xfa, 0xbf, 0xf8, 0xbc, 0xd1, 0x83, 0x89, 0x32,
0x5c, 0x43, 0x06, 0x80, 0x09, 0xb0, 0x35, 0x3b, 0x83, 0x99, 0xf5, 0xbc,
0x84, 0x23, 0xde, 0xb9, 0x26, 0x0c, 0x07, 0x80, 0xdf, 0xc8, 0x55, 0xba,
0xdb, 0x7b, 0x57, 0xab, 0xca, 0xd5, 0xee, 0xb9, 0x09, 0x14, 0x6e, 0xae,
0x62, 0xaf, 0x83, 0x8e, 0x66, 0xff, 0xff, 0xff, 0x04, 0x00, 0x00, 0x00,
0x7c, 0x00, 0x00, 0x00, 0x4e, 0x8a, 0x6c, 0x3b, 0xb6, 0x48, 0x5d, 0xbc,
0x35, 0x9b, 0xc8, 0xbd, 0x92, 0x05, 0x3f, 0xbd, 0x6b, 0x81, 0xb0, 0x3e,
0xb6, 0x46, 0x9b, 0xbe, 0xb9, 0x07, 0x97, 0xbc, 0x56, 0x52, 0x95, 0xbe,
0x05, 0x0a, 0xbd, 0x3d, 0xd2, 0xd2, 0x92, 0x3e, 0x75, 0xb5, 0x1e, 0x00,
0x75, 0xce, 0x89, 0x3e, 0x7f, 0x96, 0x46, 0xbd, 0xa9, 0x20, 0xd4, 0x3d,
0x1e, 0xa6, 0xa6, 0x3c, 0xe9, 0x58, 0xe3, 0xbb, 0xc0, 0x02, 0xce, 0xae,
0x2c, 0x78, 0x40, 0xbe, 0x69, 0x07, 0x8a, 0xbd, 0xc9, 0x92, 0x2d, 0x3a,
0x1d, 0x4d, 0x0d, 0xbb, 0x71, 0x3d, 0xfe, 0xbc, 0x81, 0xf1, 0x76, 0xbd,
0xa4, 0xf8, 0xf2, 0x3e, 0xdb, 0x56, 0x2d, 0xbb, 0xb0, 0x2c, 0x67, 0xbe,
0x24, 0x95, 0x46, 0xbd, 0x4a, 0xb8, 0xc7, 0x3c, 0xf8, 0xd8, 0x52, 0x3d,
0xaf, 0xbc, 0x32, 0x33, 0x50, 0x72, 0x9f, 0xbb, 0xee, 0xff, 0xff, 0xff,
0x04, 0x00, 0x00, 0x00, 0x04, 0x00, 0x00, 0x00, 0x3a, 0xc5, 0x86, 0xbe,
0x00, 0x00, 0x06, 0x00, 0x08, 0x00, 0x04, 0x00, 0x06, 0x00, 0x00, 0x00,
0x04, 0x00, 0x00, 0x00, 0x7c, 0x00, 0x00, 0x00, 0x6a, 0xd2, 0x42, 0x97,
0x5b, 0x06, 0xa2, 0xb3, 0x6e, 0x5c, 0xa7, 0xbe, 0x45, 0x69, 0x4d, 0x40,
0x09, 0xa9, 0x56, 0xc0, 0xfd, 0x05, 0x82, 0xbe, 0x50, 0xac, 0xae, 0xa1,
0x44, 0x45, 0x97, 0xbe, 0xf8, 0x4d, 0x67, 0xbc, 0x6c, 0xaf, 0x0a, 0x3f,
0xb3, 0x67, 0x91, 0x9d, 0x99, 0xcb, 0x97, 0xbe, 0x8b, 0x4c, 0x05, 0xbf,
0x0f, 0xcd, 0x59, 0xbd, 0xb9, 0x3f, 0x31, 0xbe, 0x38, 0xe8, 0x80, 0xb2,
0xf2, 0x73, 0x92, 0xbe, 0x1c, 0xce, 0xa7, 0xbe, 0x6f, 0x41, 0x4d, 0xbe,
0x47, 0x6b, 0xd2, 0xbf, 0xfe, 0x03, 0x31, 0xa4, 0xcd, 0x38, 0xfd, 0xc0,
0xdf, 0xf2, 0x3b, 0xbe, 0x70, 0xdb, 0xac, 0xbf, 0x9c, 0x77, 0xd8, 0xa1,
0x33, 0x7d, 0xe9, 0xbc, 0x1c, 0x4c, 0x8b, 0xb9, 0xe9, 0x6c, 0x72, 0xb9,
0xed, 0x03, 0x7a, 0xbf, 0x9c, 0x08, 0x01, 0xac, 0x87, 0x2f, 0xa6, 0xbd,
0x3c, 0xfb, 0xff, 0xff, 0x40, 0xfb, 0xff, 0xff, 0x0f, 0x00, 0x00, 0x00,
0x4d, 0x4c, 0x49, 0x52, 0x20, 0x43, 0x6f, 0x6e, 0x76, 0x65, 0x72, 0x74,
0x65, 0x64, 0x2e, 0x00, 0x01, 0x00, 0x00, 0x00, 0x14, 0x00, 0x00, 0x00,
0x00, 0x00, 0x0e, 0x00, 0x18, 0x00, 0x14, 0x00, 0x10, 0x00, 0x0c, 0x00,
0x08, 0x00, 0x04, 0x00, 0x0e, 0x00, 0x00, 0x00, 0x14, 0x00, 0x00, 0x00,
0x1c, 0x00, 0x00, 0x00, 0xe8, 0x00, 0x00, 0x00, 0xec, 0x00, 0x00, 0x00,
0xf0, 0x00, 0x00, 0x00, 0x04, 0x00, 0x00, 0x00, 0x6d, 0x61, 0x69, 0x6e,
0x00, 0x00, 0x00, 0x00, 0x03, 0x00, 0x00, 0x00, 0x90, 0x00, 0x00, 0x00,
0x48, 0x00, 0x00, 0x00, 0x04, 0x00, 0x00, 0x00, 0xce, 0xff, 0xff, 0xff,
0x10, 0x00, 0x00, 0x00, 0x00, 0x00, 0x00, 0x08, 0x0c, 0x00, 0x00, 0x00,
0x10, 0x00, 0x00, 0x00, 0xb8, 0xfb, 0xff, 0xff, 0x01, 0x00, 0x00, 0x00,
0x09, 0x00, 0x00, 0x00, 0x03, 0x00, 0x00, 0x00, 0x08, 0x00, 0x00, 0x00,
0x03, 0x00, 0x00, 0x00, 0x02, 0x00, 0x00, 0x00, 0x00, 0x00, 0x0e, 0x00,
0x14, 0x00, 0x00, 0x00, 0x10, 0x00, 0x0c, 0x00, 0x0b, 0x00, 0x04, 0x00,
0x0e, 0x00, 0x00, 0x00, 0x10, 0x00, 0x00, 0x00, 0x00, 0x00, 0x00, 0x08,
0x10, 0x00, 0x00, 0x00, 0x14, 0x00, 0x00, 0x00, 0xba, 0xff, 0xff, 0xff,
0x00, 0x00, 0x00, 0x01, 0x01, 0x00, 0x00, 0x00, 0x08, 0x00, 0x00, 0x00,
0x03, 0x00, 0x00, 0x00, 0x07, 0x00, 0x00, 0x00, 0x04, 0x00, 0x00, 0x00,
0x01, 0x00, 0x00, 0x00, 0x00, 0x00, 0x0e, 0x00, 0x16, 0x00, 0x00, 0x00,
0x10, 0x00, 0x0c, 0x00, 0x0b, 0x00, 0x04, 0x00, 0x0e, 0x00, 0x00, 0x00,
0x18, 0x00, 0x00, 0x00, 0x00, 0x00, 0x00, 0x08, 0x18, 0x00, 0x00, 0x00,
0x1c, 0x00, 0x00, 0x00, 0x00, 0x00, 0x06, 0x00, 0x08, 0x00, 0x07, 0x00,
0x06, 0x00, 0x00, 0x00, 0x00, 0x00, 0x00, 0x01, 0x01, 0x00, 0x00, 0x00,
0x07, 0x00, 0x00, 0x00, 0x03, 0x00, 0x00, 0x00, 0x00, 0x00, 0x00, 0x00,
0x05, 0x00, 0x00, 0x00, 0x06, 0x00, 0x00, 0x00, 0x01, 0x00, 0x00, 0x00,
0x09, 0x00, 0x00, 0x00, 0x01, 0x00, 0x00, 0x00, 0x00, 0x00, 0x00, 0x00,
0x0a, 0x00, 0x00, 0x00, 0x60, 0x03, 0x00, 0x00, 0xf0, 0x02, 0x00, 0x00,
0x94, 0x02, 0x00, 0x00, 0x4c, 0x02, 0x00, 0x00, 0x04, 0x02, 0x00, 0x00,
0xbc, 0x01, 0x00, 0x00, 0x64, 0x01, 0x00, 0x00, 0xe4, 0x00, 0x00, 0x00,
0x60, 0x00, 0x00, 0x00, 0x04, 0x00, 0x00, 0x00, 0xde, 0xfc, 0xff, 0xff,
0x00, 0x00, 0x00, 0x01, 0x14, 0x00, 0x00, 0x00, 0x1c, 0x00, 0x00, 0x00,
0x1c, 0x00, 0x00, 0x00, 0x0a, 0x00, 0x00, 0x00, 0x34, 0x00, 0x00, 0x00,
0x02, 0x00, 0x00, 0x00, 0xff, 0xff, 0xff, 0xff, 0x01, 0x00, 0x00, 0x00,
0xc8, 0xfc, 0xff, 0xff, 0x19, 0x00, 0x00, 0x00, 0x53, 0x74, 0x61, 0x74,
0x65, 0x66, 0x75, 0x6c, 0x50, 0x61, 0x72, 0x74, 0x69, 0x74, 0x69, 0x6f,
0x6e, 0x65, 0x64, 0x43, 0x61, 0x6c, 0x6c, 0x3a, 0x30, 0x00, 0x00, 0x00,
0x02, 0x00, 0x00, 0x00, 0x01, 0x00, 0x00, 0x00, 0x01, 0x00, 0x00, 0x00,
0x36, 0xfd, 0xff, 0xff, 0x00, 0x00, 0x00, 0x01, 0x14, 0x00, 0x00, 0x00,
0x1c, 0x00, 0x00, 0x00, 0x1c, 0x00, 0x00, 0x00, 0x09, 0x00, 0x00, 0x00,
0x5c, 0x00, 0x00, 0x00, 0x02, 0x00, 0x00, 0x00, 0xff, 0xff, 0xff, 0xff,
0x1f, 0x00, 0x00, 0x00, 0x20, 0xfd, 0xff, 0xff, 0x41, 0x00, 0x00, 0x00,
0x6d, 0x6f, 0x64, 0x65, 0x6c, 0x2f, 0x41, 0x63, 0x74, 0x6f, 0x72, 0x46,
0x43, 0x32, 0x5f, 0x2f, 0x4d, 0x61, 0x74, 0x4d, 0x75, 0x6c, 0x3b, 0x6d,
0x6f, 0x64, 0x65, 0x6c, 0x2f, 0x72, 0x65, 0x5f, 0x6c, 0x75, 0x5f, 0x31,
0x2f, 0x52, 0x65, 0x6c, 0x75, 0x3b, 0x6d, 0x6f, 0x64, 0x65, 0x6c, 0x2f,
0x41, 0x63, 0x74, 0x6f, 0x72, 0x46, 0x43, 0x32, 0x5f, 0x2f, 0x42, 0x69,
0x61, 0x73, 0x41, 0x64, 0x64, 0x00, 0x00, 0x00, 0x02, 0x00, 0x00, 0x00,
0x01, 0x00, 0x00, 0x00, 0x1f, 0x00, 0x00, 0x00, 0xb6, 0xfd, 0xff, 0xff,
0x00, 0x00, 0x00, 0x01, 0x14, 0x00, 0x00, 0x00, 0x1c, 0x00, 0x00, 0x00,
0x1c, 0x00, 0x00, 0x00, 0x08, 0x00, 0x00, 0x00, 0x58, 0x00, 0x00, 0x00,
0x02, 0x00, 0x00, 0x00, 0xff, 0xff, 0xff, 0xff, 0x1f, 0x00, 0x00, 0x00,
0xa0, 0xfd, 0xff, 0xff, 0x3f, 0x00, 0x00, 0x00, 0x6d, 0x6f, 0x64, 0x65,
0x6c, 0x2f, 0x41, 0x63, 0x74, 0x6f, 0x72, 0x46, 0x43, 0x31, 0x5f, 0x2f,
0x4d, 0x61, 0x74, 0x4d, 0x75, 0x6c, 0x3b, 0x6d, 0x6f, 0x64, 0x65, 0x6c,
0x2f, 0x72, 0x65, 0x5f, 0x6c, 0x75, 0x2f, 0x52, 0x65, 0x6c, 0x75, 0x3b,
0x6d, 0x6f, 0x64, 0x65, 0x6c, 0x2f, 0x41, 0x63, 0x74, 0x6f, 0x72, 0x46,
0x43, 0x31, 0x5f, 0x2f, 0x42, 0x69, 0x61, 0x73, 0x41, 0x64, 0x64, 0x00,
0x02, 0x00, 0x00, 0x00, 0x01, 0x00, 0x00, 0x00, 0x1f, 0x00, 0x00, 0x00,
0x9e, 0xfe, 0xff, 0xff, 0x00, 0x00, 0x00, 0x01, 0x10, 0x00, 0x00, 0x00,
0x10, 0x00, 0x00, 0x00, 0x07, 0x00, 0x00, 0x00, 0x38, 0x00, 0x00, 0x00,
0x0c, 0xfe, 0xff, 0xff, 0x28, 0x00, 0x00, 0x00, 0x6d, 0x6f, 0x64, 0x65,
0x6c, 0x2f, 0x72, 0x65, 0x5f, 0x6c, 0x75, 0x2f, 0x52, 0x65, 0x6c, 0x75,
0x3b, 0x6d, 0x6f, 0x64, 0x65, 0x6c, 0x2f, 0x41, 0x63, 0x74, 0x6f, 0x72,
0x46, 0x43, 0x31, 0x5f, 0x2f, 0x42, 0x69, 0x61, 0x73, 0x41, 0x64, 0x64,
0x00, 0x00, 0x00, 0x00, 0x01, 0x00, 0x00, 0x00, 0x1f, 0x00, 0x00, 0x00,
0xf2, 0xfe, 0xff, 0xff, 0x00, 0x00, 0x00, 0x01, 0x10, 0x00, 0x00, 0x00,
0x10, 0x00, 0x00, 0x00, 0x06, 0x00, 0x00, 0x00, 0x24, 0x00, 0x00, 0x00,
0x60, 0xfe, 0xff, 0xff, 0x16, 0x00, 0x00, 0x00, 0x6d, 0x6f, 0x64, 0x65,
0x6c, 0x2f, 0x41, 0x63, 0x74, 0x6f, 0x72, 0x46, 0x43, 0x31, 0x5f, 0x2f,
0x4d, 0x61, 0x74, 0x4d, 0x75, 0x6c, 0x00, 0x00, 0x02, 0x00, 0x00, 0x00,
0x1f, 0x00, 0x00, 0x00, 0x06, 0x00, 0x00, 0x00, 0x36, 0xff, 0xff, 0xff,
0x00, 0x00, 0x00, 0x01, 0x10, 0x00, 0x00, 0x00, 0x10, 0x00, 0x00, 0x00,
0x05, 0x00, 0x00, 0x00, 0x24, 0x00, 0x00, 0x00, 0xa4, 0xfe, 0xff, 0xff,
0x16, 0x00, 0x00, 0x00, 0x6d, 0x6f, 0x64, 0x65, 0x6c, 0x2f, 0x41, 0x63,
0x74, 0x6f, 0x72, 0x46, 0x43, 0x32, 0x5f, 0x2f, 0x4d, 0x61, 0x74, 0x4d,
0x75, 0x6c, 0x00, 0x00, 0x02, 0x00, 0x00, 0x00, 0x1f, 0x00, 0x00, 0x00,
0x1f, 0x00, 0x00, 0x00, 0x7a, 0xff, 0xff, 0xff, 0x00, 0x00, 0x00, 0x01,
0x10, 0x00, 0x00, 0x00, 0x10, 0x00, 0x00, 0x00, 0x04, 0x00, 0x00, 0x00,
0x24, 0x00, 0x00, 0x00, 0xe8, 0xfe, 0xff, 0xff, 0x16, 0x00, 0x00, 0x00,
0x6d, 0x6f, 0x64, 0x65, 0x6c, 0x2f, 0x41, 0x63, 0x74, 0x6f, 0x72, 0x46,
0x43, 0x33, 0x5f, 0x2f, 0x4d, 0x61, 0x74, 0x4d, 0x75, 0x6c, 0x00, 0x00,
0x02, 0x00, 0x00, 0x00, 0x01, 0x00, 0x00, 0x00, 0x1f, 0x00, 0x00, 0x00,
0xbe, 0xff, 0xff, 0xff, 0x00, 0x00, 0x00, 0x01, 0x10, 0x00, 0x00, 0x00,
0x10, 0x00, 0x00, 0x00, 0x03, 0x00, 0x00, 0x00, 0x24, 0x00, 0x00, 0x00,
0x2c, 0xff, 0xff, 0xff, 0x17, 0x00, 0x00, 0x00, 0x6d, 0x6f, 0x64, 0x65,
0x6c, 0x2f, 0x41, 0x63, 0x74, 0x6f, 0x72, 0x46, 0x43, 0x33, 0x5f, 0x2f,
0x42, 0x69, 0x61, 0x73, 0x41, 0x64, 0x64, 0x00, 0x01, 0x00, 0x00, 0x00,
0x01, 0x00, 0x00, 0x00, 0x00, 0x00, 0x16, 0x00, 0x18, 0x00, 0x14, 0x00,
0x00, 0x00, 0x10, 0x00, 0x0c, 0x00, 0x08, 0x00, 0x00, 0x00, 0x00, 0x00,
0x00, 0x00, 0x07, 0x00, 0x16, 0x00, 0x00, 0x00, 0x00, 0x00, 0x00, 0x01,
0x10, 0x00, 0x00, 0x00, 0x10, 0x00, 0x00, 0x00, 0x02, 0x00, 0x00, 0x00,
0x38, 0x00, 0x00, 0x00, 0x84, 0xff, 0xff, 0xff, 0x2a, 0x00, 0x00, 0x00,
0x6d, 0x6f, 0x64, 0x65, 0x6c, 0x2f, 0x72, 0x65, 0x5f, 0x6c, 0x75, 0x5f,
0x31, 0x2f, 0x52, 0x65, 0x6c, 0x75, 0x3b, 0x6d, 0x6f, 0x64, 0x65, 0x6c,
0x2f, 0x41, 0x63, 0x74, 0x6f, 0x72, 0x46, 0x43, 0x32, 0x5f, 0x2f, 0x42,
0x69, 0x61, 0x73, 0x41, 0x64, 0x64, 0x00, 0x00, 0x01, 0x00, 0x00, 0x00,
0x1f, 0x00, 0x00, 0x00, 0x00, 0x00, 0x16, 0x00, 0x1c, 0x00, 0x18, 0x00,
0x00, 0x00, 0x14, 0x00, 0x10, 0x00, 0x0c, 0x00, 0x00, 0x00, 0x00, 0x00,
0x08, 0x00, 0x07, 0x00, 0x16, 0x00, 0x00, 0x00, 0x00, 0x00, 0x00, 0x01,
0x14, 0x00, 0x00, 0x00, 0x20, 0x00, 0x00, 0x00, 0x20, 0x00, 0x00, 0x00,
0x01, 0x00, 0x00, 0x00, 0x38, 0x00, 0x00, 0x00, 0x02, 0x00, 0x00, 0x00,
0xff, 0xff, 0xff, 0xff, 0x06, 0x00, 0x00, 0x00, 0x04, 0x00, 0x04, 0x00,
0x04, 0x00, 0x00, 0x00, 0x19, 0x00, 0x00, 0x00, 0x73, 0x65, 0x72, 0x76,
0x69, 0x6e, 0x67, 0x5f, 0x64, 0x65, 0x66, 0x61, 0x75, 0x6c, 0x74, 0x5f,
0x69, 0x6e, 0x70, 0x75, 0x74, 0x5f, 0x31, 0x3a, 0x30, 0x00, 0x00, 0x00,
0x02, 0x00, 0x00, 0x00, 0x01, 0x00, 0x00, 0x00, 0x06, 0x00, 0x00, 0x00,
0x01, 0x00, 0x00, 0x00, 0x10, 0x00, 0x00, 0x00, 0x0c, 0x00, 0x0c, 0x00,
0x0b, 0x00, 0x00, 0x00, 0x00, 0x00, 0x04, 0x00, 0x0c, 0x00, 0x00, 0x00,
0x09, 0x00, 0x00, 0x00, 0x00, 0x00, 0x00, 0x09
};
const int td3_model_len = 6824;

#endif // td3_MODEL_H